// model_data.h
#ifndef MODEL_DATA_H
#define MODEL_DATA_H

#include <stdint.h>

// Note que aqui colocamos o "unsigned char" e os dados juntos
const unsigned char model_data[] __attribute__((aligned(8))) = {
0x1c, 0x00, 0x00, 0x00, 0x54, 0x46, 0x4c, 0x33, 0x14, 0x00, 0x20, 0x00, 
0x1c, 0x00, 0x18, 0x00, 0x14, 0x00, 0x10, 0x00, 0x0c, 0x00, 0x00, 0x00, 
0x08, 0x00, 0x04, 0x00, 0x14, 0x00, 0x00, 0x00, 0x1c, 0x00, 0x00, 0x00, 
0x98, 0x00, 0x00, 0x00, 0xf0, 0x00, 0x00, 0x00, 0xa8, 0x05, 0x00, 0x00, 
0xb8, 0x05, 0x00, 0x00, 0x6c, 0x0b, 0x00, 0x00, 0x03, 0x00, 0x00, 0x00, 
0x01, 0x00, 0x00, 0x00, 0x10, 0x00, 0x00, 0x00, 0x00, 0x00, 0x0a, 0x00, 
0x10, 0x00, 0x0c, 0x00, 0x08, 0x00, 0x04, 0x00, 0x0a, 0x00, 0x00, 0x00, 
0x0c, 0x00, 0x00, 0x00, 0x1c, 0x00, 0x00, 0x00, 0x3c, 0x00, 0x00, 0x00, 
0x0f, 0x00, 0x00, 0x00, 0x73, 0x65, 0x72, 0x76, 0x69, 0x6e, 0x67, 0x5f, 
0x64, 0x65, 0x66, 0x61, 0x75, 0x6c, 0x74, 0x00, 0x01, 0x00, 0x00, 0x00, 
0x04, 0x00, 0x00, 0x00, 0x90, 0xff, 0xff, 0xff, 0x0a, 0x00, 0x00, 0x00, 
0x04, 0x00, 0x00, 0x00, 0x08, 0x00, 0x00, 0x00, 0x6f, 0x75, 0x74, 0x70, 
0x75, 0x74, 0x5f, 0x30, 0x00, 0x00, 0x00, 0x00, 0x01, 0x00, 0x00, 0x00, 
0x04, 0x00, 0x00, 0x00, 0x3e, 0xfa, 0xff, 0xff, 0x04, 0x00, 0x00, 0x00, 
0x0e, 0x00, 0x00, 0x00, 0x6b, 0x65, 0x72, 0x61, 0x73, 0x5f, 0x74, 0x65, 
0x6e, 0x73, 0x6f, 0x72, 0x5f, 0x37, 0x00, 0x00, 0x02, 0x00, 0x00, 0x00, 
0x34, 0x00, 0x00, 0x00, 0x04, 0x00, 0x00, 0x00, 0xdc, 0xff, 0xff, 0xff, 
0x0d, 0x00, 0x00, 0x00, 0x04, 0x00, 0x00, 0x00, 0x13, 0x00, 0x00, 0x00, 
0x43, 0x4f, 0x4e, 0x56, 0x45, 0x52, 0x53, 0x49, 0x4f, 0x4e, 0x5f, 0x4d, 
0x45, 0x54, 0x41, 0x44, 0x41, 0x54, 0x41, 0x00, 0x08, 0x00, 0x0c, 0x00, 
0x08, 0x00, 0x04, 0x00, 0x08, 0x00, 0x00, 0x00, 0x0c, 0x00, 0x00, 0x00, 
0x04, 0x00, 0x00, 0x00, 0x13, 0x00, 0x00, 0x00, 0x6d, 0x69, 0x6e, 0x5f, 
0x72, 0x75, 0x6e, 0x74, 0x69, 0x6d, 0x65, 0x5f, 0x76, 0x65, 0x72, 0x73, 
0x69, 0x6f, 0x6e, 0x00, 0x0e, 0x00, 0x00, 0x00, 0xb4, 0x04, 0x00, 0x00, 
0xac, 0x04, 0x00, 0x00, 0x5c, 0x04, 0x00, 0x00, 0xcc, 0x02, 0x00, 0x00, 
0xb4, 0x02, 0x00, 0x00, 0x84, 0x02, 0x00, 0x00, 0x44, 0x02, 0x00, 0x00, 
0xb4, 0x00, 0x00, 0x00, 0xac, 0x00, 0x00, 0x00, 0xa4, 0x00, 0x00, 0x00, 
0x9c, 0x00, 0x00, 0x00, 0x94, 0x00, 0x00, 0x00, 0x74, 0x00, 0x00, 0x00, 
0x04, 0x00, 0x00, 0x00, 0xf2, 0xfa, 0xff, 0xff, 0x04, 0x00, 0x00, 0x00, 
0x60, 0x00, 0x00, 0x00, 0x10, 0x00, 0x00, 0x00, 0x00, 0x00, 0x00, 0x00, 
0x08, 0x00, 0x0e, 0x00, 0x08, 0x00, 0x04, 0x00, 0x08, 0x00, 0x00, 0x00, 
0x10, 0x00, 0x00, 0x00, 0x24, 0x00, 0x00, 0x00, 0x00, 0x00, 0x06, 0x00, 
0x08, 0x00, 0x04, 0x00, 0x06, 0x00, 0x00, 0x00, 0x04, 0x00, 0x00, 0x00, 
0x00, 0x00, 0x00, 0x00, 0x0c, 0x00, 0x18, 0x00, 0x14, 0x00, 0x10, 0x00, 
0x0c, 0x00, 0x04, 0x00, 0x0c, 0x00, 0x00, 0x00, 0xa6, 0x1b, 0xaa, 0xdd, 
0xb0, 0xe1, 0xda, 0x21, 0x02, 0x00, 0x00, 0x00, 0x02, 0x00, 0x00, 0x00, 
0x04, 0x00, 0x00, 0x00, 0x06, 0x00, 0x00, 0x00, 0x32, 0x2e, 0x31, 0x39, 
0x2e, 0x30, 0x00, 0x00, 0x5e, 0xfb, 0xff, 0xff, 0x04, 0x00, 0x00, 0x00, 
0x10, 0x00, 0x00, 0x00, 0x31, 0x2e, 0x35, 0x2e, 0x30, 0x00, 0x00, 0x00, 
0x00, 0x00, 0x00, 0x00, 0x00, 0x00, 0x00, 0x00, 0x78, 0xf6, 0xff, 0xff, 
0x7c, 0xf6, 0xff, 0xff, 0x80, 0xf6, 0xff, 0xff, 0x84, 0xf6, 0xff, 0xff, 
0x8a, 0xfb, 0xff, 0xff, 0x04, 0x00, 0x00, 0x00, 0x80, 0x01, 0x00, 0x00, 
0xea, 0xc9, 0x88, 0xbe, 0xa4, 0xc0, 0x42, 0x3d, 0x25, 0xc8, 0x0a, 0xbf, 
0xef, 0xf2, 0x43, 0x3e, 0x4b, 0xe5, 0xa8, 0x3d, 0x05, 0x46, 0xc6, 0xbe, 
0x57, 0x50, 0x37, 0x3f, 0x65, 0xec, 0x1f, 0x3f, 0x26, 0xa8, 0xd8, 0x3d, 
0x55, 0x47, 0x04, 0x3f, 0x25, 0x8e, 0xbb, 0xbe, 0xc2, 0x4f, 0x28, 0x3d, 
0xeb, 0xff, 0xab, 0x3e, 0x95, 0xce, 0x14, 0x3f, 0x26, 0x3f, 0x42, 0x3e, 
0x3d, 0x1a, 0x3f, 0x3f, 0xb5, 0xfc, 0x21, 0xbe, 0x5f, 0xd9, 0xb8, 0xbe, 
0x36, 0x32, 0x3e, 0x3f, 0x1e, 0x70, 0xaf, 0xbe, 0xa8, 0x50, 0x1d, 0x3f, 
0x59, 0x3a, 0x85, 0xbe, 0xc5, 0x1c, 0x2b, 0x3d, 0xdb, 0x9b, 0x17, 0x3e, 
0x26, 0xbe, 0xf0, 0xbd, 0xce, 0xdd, 0x37, 0x3f, 0x0e, 0x84, 0x29, 0x3e, 
0x3e, 0x97, 0xfc, 0x3e, 0x86, 0x52, 0x53, 0x3c, 0xd3, 0xc6, 0x0e, 0x3f, 
0xc7, 0x62, 0x52, 0xbd, 0xb0, 0xf0, 0x37, 0x3e, 0xa6, 0x5c, 0x05, 0xbf, 
0x5b, 0xe4, 0x34, 0x3e, 0xd4, 0xf2, 0x8c, 0x3e, 0x60, 0x83, 0x3e, 0x3f, 
0xf0, 0x3f, 0x4d, 0x3e, 0xae, 0x98, 0x4a, 0xbb, 0x7f, 0x04, 0x02, 0x3f, 
0xf0, 0x58, 0x1a, 0xbf, 0x16, 0xe0, 0x58, 0xbe, 0x46, 0x2a, 0x6f, 0x3e, 
0xca, 0x2f, 0x0f, 0x3e, 0x3d, 0x5a, 0x64, 0x3f, 0xb9, 0xa6, 0x9b, 0x3e, 
0xe0, 0xe5, 0x39, 0xbe, 0x35, 0x41, 0x80, 0xbe, 0x82, 0xf0, 0xb5, 0xbe, 
0x92, 0xcc, 0x06, 0x3f, 0xd2, 0xe9, 0x09, 0xbf, 0x94, 0x19, 0x73, 0xbe, 
0x4c, 0x97, 0x90, 0xbd, 0x00, 0x29, 0xa3, 0xbe, 0xdf, 0x64, 0x0a, 0xbf, 
0x64, 0xf7, 0xb1, 0xbe, 0xc1, 0xc3, 0x9e, 0xbe, 0x5f, 0x3e, 0x34, 0x3e, 
0xf8, 0x84, 0xaf, 0xbe, 0xbf, 0xed, 0x09, 0x3f, 0x92, 0x71, 0x3b, 0x3e, 
0x63, 0x1f, 0xad, 0x3e, 0x73, 0x82, 0x01, 0x3e, 0x70, 0x03, 0x02, 0xbf, 
0x70, 0xae, 0x94, 0xbd, 0x4a, 0x96, 0x62, 0xbe, 0xc0, 0x47, 0x0b, 0xbe, 
0x8c, 0xf6, 0x4e, 0x3e, 0x14, 0x7b, 0x09, 0xbf, 0x70, 0x79, 0xca, 0xbe, 
0x39, 0x01, 0xea, 0xbe, 0x8e, 0x67, 0x67, 0xbe, 0x12, 0x3d, 0xeb, 0xbe, 
0x85, 0x29, 0xf9, 0xbd, 0x83, 0xde, 0x42, 0xbe, 0xa9, 0x8b, 0x89, 0xbe, 
0x6d, 0x15, 0x58, 0x3e, 0xa1, 0xb9, 0x36, 0x3f, 0xde, 0x6e, 0x0b, 0x3d, 
0x93, 0xd4, 0x9b, 0xbe, 0x52, 0x47, 0x64, 0xbf, 0xce, 0xb9, 0x70, 0x3e, 
0x64, 0x25, 0x0a, 0x3e, 0xc8, 0x63, 0xc4, 0xbe, 0x1b, 0xb2, 0x08, 0xbf, 
0x32, 0x1b, 0xce, 0xbe, 0x16, 0x0a, 0xf9, 0xbe, 0x74, 0x41, 0x09, 0xbf, 
0x11, 0xda, 0x1a, 0xbf, 0x10, 0x03, 0x23, 0x3e, 0xf6, 0x36, 0x09, 0x3e, 
0xb8, 0x47, 0x81, 0xbe, 0x6d, 0x4e, 0x0d, 0x3f, 0x4a, 0x2d, 0xa7, 0xbe, 
0x38, 0x40, 0x80, 0xbe, 0x7d, 0x60, 0x4f, 0xbf, 0x9f, 0x7c, 0xe1, 0x3e, 
0x16, 0xfd, 0xff, 0xff, 0x04, 0x00, 0x00, 0x00, 0x30, 0x00, 0x00, 0x00, 
0xb8, 0x2d, 0x17, 0x3e, 0x99, 0x69, 0x46, 0xbe, 0x56, 0x17, 0xc0, 0x3e, 
0xe2, 0xd0, 0x8d, 0xbe, 0xc7, 0x91, 0xaf, 0x3e, 0x0a, 0x2e, 0x99, 0x3e, 
0x00, 0x00, 0x00, 0x00, 0xcf, 0x18, 0xb5, 0x3e, 0x00, 0x00, 0x00, 0x00, 
0x7d, 0xfb, 0xcd, 0x3e, 0xb2, 0x3b, 0xb4, 0xbd, 0x31, 0x91, 0x93, 0x3d, 
0x52, 0xfd, 0xff, 0xff, 0x04, 0x00, 0x00, 0x00, 0x20, 0x00, 0x00, 0x00, 
0x3e, 0x43, 0xa1, 0x3d, 0xc6, 0x00, 0xad, 0x3e, 0x00, 0x00, 0x00, 0x00, 
0x26, 0xa1, 0x3e, 0xbd, 0xc7, 0x82, 0x89, 0xbc, 0xc4, 0x44, 0xfe, 0xbd, 
0xc6, 0xa3, 0xce, 0x3d, 0x36, 0xc2, 0x93, 0x3e, 0x7e, 0xfd, 0xff, 0xff, 
0x04, 0x00, 0x00, 0x00, 0x08, 0x00, 0x00, 0x00, 0xb1, 0x8f, 0x1b, 0x3e, 
0xb7, 0x8f, 0x1b, 0xbe, 0x92, 0xfd, 0xff, 0xff, 0x04, 0x00, 0x00, 0x00, 
0x80, 0x01, 0x00, 0x00, 0xe2, 0xfc, 0xa7, 0x3f, 0x70, 0x6c, 0xfb, 0x3e, 
0xf9, 0xa3, 0x54, 0xbd, 0x9d, 0x9b, 0x50, 0xbd, 0x70, 0x5b, 0x8a, 0xbf, 
0xac, 0x54, 0x4d, 0xbf, 0x08, 0x70, 0x9d, 0x3e, 0xad, 0xd3, 0x92, 0x3e, 
0xe8, 0xde, 0xa2, 0x3d, 0xef, 0x00, 0x02, 0x3d, 0x45, 0x16, 0x00, 0xbf, 
0x7a, 0xeb, 0x9b, 0xbd, 0xb4, 0x3a, 0x82, 0x3f, 0x58, 0xe6, 0x83, 0xbf, 
0xc7, 0x47, 0x15, 0x3f, 0x4e, 0xbf, 0xe9, 0xbe, 0xae, 0x78, 0x3c, 0x3e, 
0xbd, 0x4e, 0x4e, 0x3e, 0x70, 0x54, 0xd9, 0x3d, 0xef, 0x19, 0xdc, 0x3e, 
0x40, 0x53, 0x7e, 0xbc, 0x07, 0x7e, 0x84, 0x3f, 0x35, 0xc2, 0xd6, 0xbe, 
0xf6, 0x58, 0x83, 0x3f, 0xc0, 0x85, 0x3e, 0xbd, 0x5b, 0xc6, 0xdb, 0xbe, 
0x98, 0x3d, 0x44, 0xbe, 0x56, 0xd5, 0x24, 0xbe, 0x66, 0x7b, 0xa1, 0xbe, 
0x99, 0x50, 0xfa, 0xbe, 0x33, 0xdf, 0x0b, 0xbf, 0x9c, 0xf5, 0xed, 0x3e, 
0x9e, 0xd2, 0xa8, 0x3e, 0x42, 0x36, 0x00, 0x3f, 0x08, 0xbc, 0xc0, 0xbe, 
0x60, 0x89, 0xee, 0xbc, 0x38, 0xa5, 0xf6, 0xbe, 0xb9, 0x2c, 0x1b, 0x3d, 
0x10, 0x20, 0x04, 0xbe, 0xb9, 0x60, 0x99, 0xbd, 0x2f, 0x17, 0xd2, 0xbe, 
0xfd, 0x58, 0x18, 0xbd, 0x74, 0x76, 0x0e, 0x3e, 0x2d, 0x4f, 0xda, 0xbe, 
0x2a, 0xed, 0x5e, 0xbe, 0xa1, 0x50, 0xd7, 0x3e, 0x19, 0x68, 0xc9, 0x3e, 
0x2b, 0x1d, 0xd5, 0x3e, 0xc7, 0x5c, 0x0c, 0xbf, 0x04, 0x23, 0x9c, 0x3f, 
0x80, 0xd2, 0xad, 0x3b, 0x23, 0x09, 0x46, 0x3f, 0xd2, 0xa3, 0xfe, 0x3d, 
0xbb, 0x92, 0x2b, 0x3e, 0x14, 0x3e, 0x0d, 0x3e, 0x64, 0x14, 0x83, 0xbe, 
0xb2, 0x1a, 0xa2, 0x3e, 0xd6, 0x7d, 0x5d, 0x3e, 0xd4, 0xc3, 0xf1, 0xbe, 
0x3a, 0x41, 0xe7, 0xbe, 0x1c, 0x9b, 0x08, 0x3e, 0x76, 0x3e, 0xa2, 0x3e, 
0xf4, 0x8c, 0x19, 0xbf, 0x67, 0xa1, 0x10, 0xbf, 0xb4, 0xe9, 0x98, 0xbe, 
0x46, 0xfb, 0xe5, 0xbe, 0x62, 0x12, 0xc5, 0x3e, 0x6f, 0x57, 0x72, 0xbe, 
0x92, 0x33, 0xed, 0xbe, 0xc2, 0x26, 0xa9, 0x3e, 0xd6, 0xa6, 0x5c, 0xbe, 
0x17, 0x74, 0xa7, 0x3e, 0x3a, 0x5d, 0x69, 0x3f, 0x76, 0x9f, 0xd8, 0x3e, 
0xbe, 0xc5, 0xd8, 0xbe, 0x65, 0x8a, 0xc8, 0xbe, 0xb8, 0x6f, 0x0c, 0xbf, 
0xa2, 0xb3, 0xce, 0x3d, 0xf0, 0xb6, 0x06, 0x3d, 0x56, 0xef, 0x04, 0x3f, 
0x48, 0x76, 0x8a, 0xbd, 0x93, 0x1b, 0xa4, 0xbf, 0x1e, 0xee, 0x20, 0xbe, 
0xac, 0x6b, 0x0c, 0x3f, 0xc4, 0x6e, 0x8b, 0x3f, 0xf7, 0xbf, 0x35, 0xbf, 
0xa3, 0x32, 0x8e, 0x3e, 0x77, 0xaf, 0xd4, 0xbe, 0xd1, 0x7b, 0xbf, 0x3d, 
0x98, 0x15, 0x94, 0x3c, 0x6c, 0x65, 0x79, 0xbe, 0x01, 0x04, 0x94, 0x3e, 
0x64, 0x1c, 0xdf, 0x3e, 0x91, 0xbc, 0x4f, 0x3f, 0xf2, 0xc5, 0xa6, 0xbe, 
0x2a, 0xf5, 0x8c, 0x3f, 0x1e, 0xff, 0xff, 0xff, 0x04, 0x00, 0x00, 0x00, 
0x40, 0x00, 0x00, 0x00, 0x75, 0xdf, 0x03, 0x40, 0x4d, 0xb1, 0xb0, 0x3f, 
0x66, 0x65, 0x0d, 0x3f, 0xc4, 0xbf, 0x9f, 0xbd, 0x5b, 0x31, 0x6e, 0xbf, 
0x5d, 0xd3, 0x0d, 0xbd, 0x61, 0xa5, 0xee, 0x3e, 0x59, 0xd2, 0x9f, 0x3f, 
0x38, 0x20, 0xa7, 0xbf, 0xd4, 0x82, 0xd2, 0xbf, 0x9e, 0x39, 0x1a, 0x3f, 
0xeb, 0x22, 0x33, 0xbd, 0xea, 0x8c, 0x2e, 0x3f, 0x11, 0x12, 0x08, 0x3f, 
0xb3, 0x50, 0x8b, 0xbf, 0x7e, 0x02, 0x00, 0xc0, 0x68, 0xfa, 0xff, 0xff, 
0x6c, 0xfa, 0xff, 0xff, 0x0f, 0x00, 0x00, 0x00, 0x4d, 0x4c, 0x49, 0x52, 
0x20, 0x43, 0x6f, 0x6e, 0x76, 0x65, 0x72, 0x74, 0x65, 0x64, 0x2e, 0x00, 
0x01, 0x00, 0x00, 0x00, 0x14, 0x00, 0x00, 0x00, 0x00, 0x00, 0x0e, 0x00, 
0x18, 0x00, 0x14, 0x00, 0x10, 0x00, 0x0c, 0x00, 0x08, 0x00, 0x04, 0x00, 
0x0e, 0x00, 0x00, 0x00, 0x14, 0x00, 0x00, 0x00, 0x1c, 0x00, 0x00, 0x00, 
0x24, 0x01, 0x00, 0x00, 0x28, 0x01, 0x00, 0x00, 0x2c, 0x01, 0x00, 0x00, 
0x04, 0x00, 0x00, 0x00, 0x6d, 0x61, 0x69, 0x6e, 0x00, 0x00, 0x00, 0x00, 
0x04, 0x00, 0x00, 0x00, 0xcc, 0x00, 0x00, 0x00, 0x84, 0x00, 0x00, 0x00, 
0x50, 0x00, 0x00, 0x00, 0x14, 0x00, 0x00, 0x00, 0x00, 0x00, 0x0e, 0x00, 
0x1a, 0x00, 0x14, 0x00, 0x10, 0x00, 0x0c, 0x00, 0x0b, 0x00, 0x04, 0x00, 
0x0e, 0x00, 0x00, 0x00, 0x1c, 0x00, 0x00, 0x00, 0x00, 0x00, 0x00, 0x09, 
0x1c, 0x00, 0x00, 0x00, 0x20, 0x00, 0x00, 0x00, 0x01, 0x00, 0x00, 0x00, 
0x00, 0x00, 0x06, 0x00, 0x08, 0x00, 0x04, 0x00, 0x06, 0x00, 0x00, 0x00, 
0x00, 0x00, 0x80, 0x3f, 0x01, 0x00, 0x00, 0x00, 0x0a, 0x00, 0x00, 0x00, 
0x01, 0x00, 0x00, 0x00, 0x09, 0x00, 0x00, 0x00, 0x9a, 0xff, 0xff, 0xff, 
0x10, 0x00, 0x00, 0x00, 0x00, 0x00, 0x00, 0x08, 0x0c, 0x00, 0x00, 0x00, 
0x10, 0x00, 0x00, 0x00, 0x30, 0xfb, 0xff, 0xff, 0x01, 0x00, 0x00, 0x00, 
0x09, 0x00, 0x00, 0x00, 0x03, 0x00, 0x00, 0x00, 0x08, 0x00, 0x00, 0x00, 
0x01, 0x00, 0x00, 0x00, 0x03, 0x00, 0x00, 0x00, 0xca, 0xff, 0xff, 0xff, 
0x10, 0x00, 0x00, 0x00, 0x00, 0x00, 0x00, 0x08, 0x10, 0x00, 0x00, 0x00, 
0x14, 0x00, 0x00, 0x00, 0xba, 0xff, 0xff, 0xff, 0x00, 0x00, 0x00, 0x01, 
0x01, 0x00, 0x00, 0x00, 0x08, 0x00, 0x00, 0x00, 0x03, 0x00, 0x00, 0x00, 
0x07, 0x00, 0x00, 0x00, 0x02, 0x00, 0x00, 0x00, 0x04, 0x00, 0x00, 0x00, 
0x00, 0x00, 0x0e, 0x00, 0x16, 0x00, 0x00, 0x00, 0x10, 0x00, 0x0c, 0x00, 
0x0b, 0x00, 0x04, 0x00, 0x0e, 0x00, 0x00, 0x00, 0x18, 0x00, 0x00, 0x00, 
0x00, 0x00, 0x00, 0x08, 0x18, 0x00, 0x00, 0x00, 0x1c, 0x00, 0x00, 0x00, 
0x00, 0x00, 0x06, 0x00, 0x08, 0x00, 0x07, 0x00, 0x06, 0x00, 0x00, 0x00, 
0x00, 0x00, 0x00, 0x01, 0x01, 0x00, 0x00, 0x00, 0x07, 0x00, 0x00, 0x00, 
0x03, 0x00, 0x00, 0x00, 0x00, 0x00, 0x00, 0x00, 0x06, 0x00, 0x00, 0x00, 
0x05, 0x00, 0x00, 0x00, 0x01, 0x00, 0x00, 0x00, 0x0a, 0x00, 0x00, 0x00, 
0x01, 0x00, 0x00, 0x00, 0x00, 0x00, 0x00, 0x00, 0x0b, 0x00, 0x00, 0x00, 
0xf8, 0x03, 0x00, 0x00, 0xa0, 0x03, 0x00, 0x00, 0x48, 0x03, 0x00, 0x00, 
0x0c, 0x03, 0x00, 0x00, 0xd0, 0x02, 0x00, 0x00, 0x74, 0x02, 0x00, 0x00, 
0x24, 0x02, 0x00, 0x00, 0x84, 0x01, 0x00, 0x00, 0xe4, 0x00, 0x00, 0x00, 
0x60, 0x00, 0x00, 0x00, 0x04, 0x00, 0x00, 0x00, 0x4a, 0xfc, 0xff, 0xff, 
0x00, 0x00, 0x00, 0x01, 0x14, 0x00, 0x00, 0x00, 0x1c, 0x00, 0x00, 0x00, 
0x1c, 0x00, 0x00, 0x00, 0x0b, 0x00, 0x00, 0x00, 0x34, 0x00, 0x00, 0x00, 
0x02, 0x00, 0x00, 0x00, 0xff, 0xff, 0xff, 0xff, 0x02, 0x00, 0x00, 0x00, 
0x34, 0xfc, 0xff, 0xff, 0x1b, 0x00, 0x00, 0x00, 0x53, 0x74, 0x61, 0x74, 
0x65, 0x66, 0x75, 0x6c, 0x50, 0x61, 0x72, 0x74, 0x69, 0x74, 0x69, 0x6f, 
0x6e, 0x65, 0x64, 0x43, 0x61, 0x6c, 0x6c, 0x5f, 0x31, 0x3a, 0x30, 0x00, 
0x02, 0x00, 0x00, 0x00, 0x01, 0x00, 0x00, 0x00, 0x02, 0x00, 0x00, 0x00, 
0xa2, 0xfc, 0xff, 0xff, 0x00, 0x00, 0x00, 0x01, 0x14, 0x00, 0x00, 0x00, 
0x1c, 0x00, 0x00, 0x00, 0x1c, 0x00, 0x00, 0x00, 0x0a, 0x00, 0x00, 0x00, 
0x5c, 0x00, 0x00, 0x00, 0x02, 0x00, 0x00, 0x00, 0xff, 0xff, 0xff, 0xff, 
0x02, 0x00, 0x00, 0x00, 0x8c, 0xfc, 0xff, 0xff, 0x40, 0x00, 0x00, 0x00, 
0x73, 0x65, 0x71, 0x75, 0x65, 0x6e, 0x74, 0x69, 0x61, 0x6c, 0x5f, 0x32, 
0x5f, 0x31, 0x2f, 0x64, 0x65, 0x6e, 0x73, 0x65, 0x5f, 0x37, 0x5f, 0x31, 
0x2f, 0x4d, 0x61, 0x74, 0x4d, 0x75, 0x6c, 0x3b, 0x73, 0x65, 0x71, 0x75, 
0x65, 0x6e, 0x74, 0x69, 0x61, 0x6c, 0x5f, 0x32, 0x5f, 0x31, 0x2f, 0x64, 
0x65, 0x6e, 0x73, 0x65, 0x5f, 0x37, 0x5f, 0x31, 0x2f, 0x42, 0x69, 0x61, 
0x73, 0x41, 0x64, 0x64, 0x00, 0x00, 0x00, 0x00, 0x02, 0x00, 0x00, 0x00, 
0x01, 0x00, 0x00, 0x00, 0x02, 0x00, 0x00, 0x00, 0x22, 0xfd, 0xff, 0xff, 
0x00, 0x00, 0x00, 0x01, 0x14, 0x00, 0x00, 0x00, 0x1c, 0x00, 0x00, 0x00, 
0x1c, 0x00, 0x00, 0x00, 0x09, 0x00, 0x00, 0x00, 0x78, 0x00, 0x00, 0x00, 
0x02, 0x00, 0x00, 0x00, 0xff, 0xff, 0xff, 0xff, 0x08, 0x00, 0x00, 0x00, 
0x0c, 0xfd, 0xff, 0xff, 0x5e, 0x00, 0x00, 0x00, 0x73, 0x65, 0x71, 0x75, 
0x65, 0x6e, 0x74, 0x69, 0x61, 0x6c, 0x5f, 0x32, 0x5f, 0x31, 0x2f, 0x64, 
0x65, 0x6e, 0x73, 0x65, 0x5f, 0x36, 0x5f, 0x31, 0x2f, 0x4d, 0x61, 0x74, 
0x4d, 0x75, 0x6c, 0x3b, 0x73, 0x65, 0x71, 0x75, 0x65, 0x6e, 0x74, 0x69, 
0x61, 0x6c, 0x5f, 0x32, 0x5f, 0x31, 0x2f, 0x64, 0x65, 0x6e, 0x73, 0x65, 
0x5f, 0x36, 0x5f, 0x31, 0x2f, 0x52, 0x65, 0x6c, 0x75, 0x3b, 0x73, 0x65, 
0x71, 0x75, 0x65, 0x6e, 0x74, 0x69, 0x61, 0x6c, 0x5f, 0x32, 0x5f, 0x31, 
0x2f, 0x64, 0x65, 0x6e, 0x73, 0x65, 0x5f, 0x36, 0x5f, 0x31, 0x2f, 0x42, 
0x69, 0x61, 0x73, 0x41, 0x64, 0x64, 0x00, 0x00, 0x02, 0x00, 0x00, 0x00, 
0x01, 0x00, 0x00, 0x00, 0x08, 0x00, 0x00, 0x00, 0xbe, 0xfd, 0xff, 0xff, 
0x00, 0x00, 0x00, 0x01, 0x14, 0x00, 0x00, 0x00, 0x1c, 0x00, 0x00, 0x00, 
0x1c, 0x00, 0x00, 0x00, 0x08, 0x00, 0x00, 0x00, 0x78, 0x00, 0x00, 0x00, 
0x02, 0x00, 0x00, 0x00, 0xff, 0xff, 0xff, 0xff, 0x0c, 0x00, 0x00, 0x00, 
0xa8, 0xfd, 0xff, 0xff, 0x5e, 0x00, 0x00, 0x00, 0x73, 0x65, 0x71, 0x75, 
0x65, 0x6e, 0x74, 0x69, 0x61, 0x6c, 0x5f, 0x32, 0x5f, 0x31, 0x2f, 0x64, 
0x65, 0x6e, 0x73, 0x65, 0x5f, 0x35, 0x5f, 0x31, 0x2f, 0x4d, 0x61, 0x74, 
0x4d, 0x75, 0x6c, 0x3b, 0x73, 0x65, 0x71, 0x75, 0x65, 0x6e, 0x74, 0x69, 
0x61, 0x6c, 0x5f, 0x32, 0x5f, 0x31, 0x2f, 0x64, 0x65, 0x6e, 0x73, 0x65, 
0x5f, 0x35, 0x5f, 0x31, 0x2f, 0x52, 0x65, 0x6c, 0x75, 0x3b, 0x73, 0x65, 
0x71, 0x75, 0x65, 0x6e, 0x74, 0x69, 0x61, 0x6c, 0x5f, 0x32, 0x5f, 0x31, 
0x2f, 0x64, 0x65, 0x6e, 0x73, 0x65, 0x5f, 0x35, 0x5f, 0x31, 0x2f, 0x42, 
0x69, 0x61, 0x73, 0x41, 0x64, 0x64, 0x00, 0x00, 0x02, 0x00, 0x00, 0x00, 
0x01, 0x00, 0x00, 0x00, 0x0c, 0x00, 0x00, 0x00, 0xae, 0xfe, 0xff, 0xff, 
0x00, 0x00, 0x00, 0x01, 0x10, 0x00, 0x00, 0x00, 0x10, 0x00, 0x00, 0x00, 
0x07, 0x00, 0x00, 0x00, 0x2c, 0x00, 0x00, 0x00, 0x34, 0xfe, 0xff, 0xff, 
0x1f, 0x00, 0x00, 0x00, 0x73, 0x65, 0x71, 0x75, 0x65, 0x6e, 0x74, 0x69, 
0x61, 0x6c, 0x5f, 0x32, 0x5f, 0x31, 0x2f, 0x64, 0x65, 0x6e, 0x73, 0x65, 
0x5f, 0x35, 0x5f, 0x31, 0x2f, 0x4d, 0x61, 0x74, 0x4d, 0x75, 0x6c, 0x00, 
0x02, 0x00, 0x00, 0x00, 0x0c, 0x00, 0x00, 0x00, 0x08, 0x00, 0x00, 0x00, 
0xfa, 0xfe, 0xff, 0xff, 0x00, 0x00, 0x00, 0x01, 0x10, 0x00, 0x00, 0x00, 
0x10, 0x00, 0x00, 0x00, 0x06, 0x00, 0x00, 0x00, 0x3c, 0x00, 0x00, 0x00, 
0x80, 0xfe, 0xff, 0xff, 0x2f, 0x00, 0x00, 0x00, 0x73, 0x65, 0x71, 0x75, 
0x65, 0x6e, 0x74, 0x69, 0x61, 0x6c, 0x5f, 0x32, 0x5f, 0x31, 0x2f, 0x64, 
0x65, 0x6e, 0x73, 0x65, 0x5f, 0x35, 0x5f, 0x31, 0x2f, 0x42, 0x69, 0x61, 
0x73, 0x41, 0x64, 0x64, 0x2f, 0x52, 0x65, 0x61, 0x64, 0x56, 0x61, 0x72, 
0x69, 0x61, 0x62, 0x6c, 0x65, 0x4f, 0x70, 0x00, 0x01, 0x00, 0x00, 0x00, 
0x0c, 0x00, 0x00, 0x00, 0x52, 0xff, 0xff, 0xff, 0x00, 0x00, 0x00, 0x01, 
0x10, 0x00, 0x00, 0x00, 0x10, 0x00, 0x00, 0x00, 0x05, 0x00, 0x00, 0x00, 
0x1c, 0x00, 0x00, 0x00, 0xd8, 0xfe, 0xff, 0xff, 0x0f, 0x00, 0x00, 0x00, 
0x61, 0x72, 0x69, 0x74, 0x68, 0x2e, 0x63, 0x6f, 0x6e, 0x73, 0x74, 0x61, 
0x6e, 0x74, 0x33, 0x00, 0x01, 0x00, 0x00, 0x00, 0x08, 0x00, 0x00, 0x00, 
0x8a, 0xff, 0xff, 0xff, 0x00, 0x00, 0x00, 0x01, 0x10, 0x00, 0x00, 0x00, 
0x10, 0x00, 0x00, 0x00, 0x04, 0x00, 0x00, 0x00, 0x1c, 0x00, 0x00, 0x00, 
0x10, 0xff, 0xff, 0xff, 0x0f, 0x00, 0x00, 0x00, 0x61, 0x72, 0x69, 0x74, 
0x68, 0x2e, 0x63, 0x6f, 0x6e, 0x73, 0x74, 0x61, 0x6e, 0x74, 0x32, 0x00, 
0x01, 0x00, 0x00, 0x00, 0x02, 0x00, 0x00, 0x00, 0xc2, 0xff, 0xff, 0xff, 
0x00, 0x00, 0x00, 0x01, 0x10, 0x00, 0x00, 0x00, 0x10, 0x00, 0x00, 0x00, 
0x03, 0x00, 0x00, 0x00, 0x1c, 0x00, 0x00, 0x00, 0x48, 0xff, 0xff, 0xff, 
0x0f, 0x00, 0x00, 0x00, 0x61, 0x72, 0x69, 0x74, 0x68, 0x2e, 0x63, 0x6f, 
0x6e, 0x73, 0x74, 0x61, 0x6e, 0x74, 0x31, 0x00, 0x02, 0x00, 0x00, 0x00, 
0x08, 0x00, 0x00, 0x00, 0x0c, 0x00, 0x00, 0x00, 0x00, 0x00, 0x16, 0x00, 
0x18, 0x00, 0x14, 0x00, 0x00, 0x00, 0x10, 0x00, 0x0c, 0x00, 0x08, 0x00, 
0x00, 0x00, 0x00, 0x00, 0x00, 0x00, 0x07, 0x00, 0x16, 0x00, 0x00, 0x00, 
0x00, 0x00, 0x00, 0x01, 0x10, 0x00, 0x00, 0x00, 0x10, 0x00, 0x00, 0x00, 
0x02, 0x00, 0x00, 0x00, 0x1c, 0x00, 0x00, 0x00, 0x9c, 0xff, 0xff, 0xff, 
0x0e, 0x00, 0x00, 0x00, 0x61, 0x72, 0x69, 0x74, 0x68, 0x2e, 0x63, 0x6f, 
0x6e, 0x73, 0x74, 0x61, 0x6e, 0x74, 0x00, 0x00, 0x02, 0x00, 0x00, 0x00, 
0x02, 0x00, 0x00, 0x00, 0x08, 0x00, 0x00, 0x00, 0x00, 0x00, 0x16, 0x00, 
0x1c, 0x00, 0x18, 0x00, 0x00, 0x00, 0x14, 0x00, 0x10, 0x00, 0x0c, 0x00, 
0x00, 0x00, 0x00, 0x00, 0x08, 0x00, 0x07, 0x00, 0x16, 0x00, 0x00, 0x00, 
0x00, 0x00, 0x00, 0x01, 0x14, 0x00, 0x00, 0x00, 0x20, 0x00, 0x00, 0x00, 
0x20, 0x00, 0x00, 0x00, 0x01, 0x00, 0x00, 0x00, 0x40, 0x00, 0x00, 0x00, 
0x02, 0x00, 0x00, 0x00, 0xff, 0xff, 0xff, 0xff, 0x08, 0x00, 0x00, 0x00, 
0x04, 0x00, 0x04, 0x00, 0x04, 0x00, 0x00, 0x00, 0x20, 0x00, 0x00, 0x00, 
0x73, 0x65, 0x72, 0x76, 0x69, 0x6e, 0x67, 0x5f, 0x64, 0x65, 0x66, 0x61, 
0x75, 0x6c, 0x74, 0x5f, 0x6b, 0x65, 0x72, 0x61, 0x73, 0x5f, 0x74, 0x65, 
0x6e, 0x73, 0x6f, 0x72, 0x5f, 0x37, 0x3a, 0x30, 0x00, 0x00, 0x00, 0x00, 
0x02, 0x00, 0x00, 0x00, 0x01, 0x00, 0x00, 0x00, 0x08, 0x00, 0x00, 0x00, 
0x02, 0x00, 0x00, 0x00, 0x20, 0x00, 0x00, 0x00, 0x04, 0x00, 0x00, 0x00, 
0xf4, 0xff, 0xff, 0xff, 0x19, 0x00, 0x00, 0x00, 0x00, 0x00, 0x00, 0x19, 
0x0c, 0x00, 0x0c, 0x00, 0x0b, 0x00, 0x00, 0x00, 0x00, 0x00, 0x04, 0x00, 
0x0c, 0x00, 0x00, 0x00, 0x09, 0x00, 0x00, 0x00, 0x00, 0x00, 0x00, 0x09, 

};

const int model_data_len = 3024;

#endif // MODEL_DATA_H
